<unk>
_
▁d
▁
▁ad
▁n
▁i
t
▁t
▁ur
ɣ
n
▁deg
▁ara
a
▁a
▁ɣer
▁y
▁ay
en
▁s
▁ma
m
ḍ
ɣef
d
i
▁yella
▁akk
om
s
▁u
▁l
▁ye
eɣ
▁acu
kken
-d
▁aya
▁kan
▁to
▁ta
▁seg
iɣ
▁yiwen
▁am
▁ayen
k
▁kra
▁wa
in
▁da
er
▁aṭas
▁anda
an
▁nekk
r
el
iḍ
▁tmurt
▁amek
-nni
em
eḍ
mi
čči
▁la
▁ilaq
l
▁ar
▁akke
uba
ya
▁tura
▁di
y
ni
▁ac
▁ass-a
-a
▁ulac
▁tidet
ḥal
▁yebɣa
▁netta
▁w
▁bɣ
▁neɣ
▁yal
▁win
▁tella
▁ula
as
u
st
▁sami
elli
▁yi
▁uxxam
▁din
it
▁m
▁yesɛa
▁yid-
▁ẓriɣ
▁wid
al
▁d-
▁llan
▁wayen
ezzay
▁waya
▁lli
▁te
▁yessef
▁mar
▁ass
▁ti
▁imi
ustṛal
neɣ
liɣ
▁b
maziɣ
▁imir-
-is
▁tili
▁mi
▁mazal
on
▁yiwe
▁wass
▁at
la
▁yelha
es
w
▁telli
▁kečč
mdan
▁yenna-
ezmer
▁zik
▁fell-as
ṭ
na
▁yili
▁axxam
▁yett
▁bo
▁iman-i
▁yelli
▁teddu
▁sɛi
▁uɣerbaz
▁awal
ra
▁yeqqim
wi
ed
dem
▁mel
▁azekka
▁anwa
▁adlis
idir
▁ddu
ar
aqbayli
ɣer
yer
▁iḍ
▁cwi
▁ḥemmleɣ
▁yid-k
▁sin
▁yuɣal
▁iḥemmel
ri
▁kemm
win
▁yexd
agi
▁ala
mahil
maca
mliḥ
sa
▁yid-s
g
▁tudert
▁ne
▁zemre
imsujji
▁ɣ
f
▁taddart
▁yeddu
gi
▁wis
iḍen
▁d-yenna
sen
▁tikkelt
▁yedda
▁yiḍ
▁yid-sen
▁iwa
▁yerna
medd
▁teẓram
▁tebɣi
▁teẓri
▁abrid
▁tan
▁tesɛi
dɣa
e
▁tebɣam
▁d-ye
▁wawal
▁yemmut
▁fell-a
eqbay
amezwaru
deg
emma
▁tama
▁yu
▁uḍar
▁iban
▁tu
▁laman
▁yid-wen
▁fell-ak
▁ugar
▁baba-
▁ɣur-
▁tamurt
ẓri
▁bɣan
▁wi
▁tutlayt
aɣ
▁tizi
▁ɛ
daw
ma
▁zza
▁aɣ
▁tuɣal
▁ken
▁tin
▁d-y
▁xedmeɣ
▁tes
▁yufa
▁uma
▁deffir
▁zmire
▁dda
q
▁kul
mt
iseggasen
▁cc
▁gar
▁fell-
▁baba
▁yeffeɣ
yi
▁fell-asen
ihi
▁aha
qbayli
aɣen
aya
▁teddum
zdeɣ
▁yewweḍ
wa
▁yeg
▁tellam
▁teqqim
▁deg-s
▁le
▁as
▁ɣse
li
man
▁yekka
-s
▁temdint
ayen
▁qqime
▁yezr
▁iṛuḥ
▁idrimen
lec
▁lem
▁yenna
imi
ta
▁aql-i
▁xedmen
▁tesɛa
yen
▁fell-awen
ry
yet
▁yečč
kcem
hu
▁argaz
eqbayli
▁yeḍra
▁tayri
▁yeẓra
▁iɛedda
▁ak
ḍen
beḥ
▁ih
▁yemma
▁g
▁amahil
▁ixedd
wacu
smi
bga
kli
ɣerbaz
zen
▁iruḥ
▁d-sɣ
▁tzemre
▁mac
▁sɛan
▁tef
gara
nni
▁tameṭṭut
-iw
▁si
▁tmur
cku
▁useggas
ruy
▁ya
▁lḥeqq
▁wu
▁cukk
inna
ḥemmel
▁tett
frans
▁tebɣa
meqqran
▁ugur
▁ubrid
▁tag
uɣ
maynut
▁nni
mennuɣ
▁d-i
leɣ
ɣa
▁wexxam
▁yessen
ib
ini
teddun
▁ddunit
ella
-iyi
▁mari
▁tameddit
▁yir
ir
nelmad
▁tesɛam
eg
▁xeddme
ebbi
▁anect
▁ṛuḥe
▁umez
▁usaka
ezmir
▁tis
▁aseggas
▁yes
zmer
ba
ima
▁tetteddu
rt
▁yemma-
tan
▁d-yas
▁igerr
▁waṭṭan
erǧ
▁an
▁deg-sen
z
weḍ
anda
▁war
▁yiman-i
▁qqimen
▁tečč
bdu
amaziɣ
▁wer
ṛ
▁tḥemmlem
dabu
at
awan
▁tir
zzay
▁aselmad
▁aman
▁nut
aberkan
▁mazal-it
▁yess
▁we
is
▁im
ɛa
▁teqqimem
▁ama
▁sdat
▁dd
kud
ensi
anen
azzayri
ent
▁takeṛṛust
▁yebda
iyi-
▁aydi
ida
▁teɣse
▁me
▁wakud
▁ibedd
men
il
erra
nsi
▁kraḍ
uɣal
azal
zzu
da
ayla
▁yeɣli
fel
naf
▁umi
▁txedme
wal
▁zedɣe
▁yettban
▁ddan
▁ini-
ẓer
▁qqim
▁isem-i
▁x
▁ttnadi
ic
▁c
▁tanin
▁tzemrem
▁iga
▁lmu
▁wuss
▁uqbel
▁yerza
ur
▁tenna-
lli
▁daɣ
kan
ilif
▁tebɣ
eddu
si
▁ɣur-s
ad
▁yerra
▁d-a
aḍ
fi
▁nesɛ
▁wac
meslay
▁xali
▁ime
qbel
▁useg
ɣiɣ
rar
fan
beṛṛa
way
▁tgem
▁yak
▁weḥd-
lmi
▁yettnadi
▁tḥemmle
▁ddun
aneggaru
▁amkan
b
ssen
ebɣa
ez
▁ḥ
▁tedda
▁tɣaws
ussan
emmi
ex
aɛt
zu
▁yuɣ
ansi
▁yeqqar
raw
▁agdud
▁tex
yeḍ
▁meb
▁texxamt
▁yeḥb
maci
▁ila
▁ssneɣ
▁ruḥe
sekla
▁tikli
aɣelnaw
▁truḥ
▁mmi-
▁ẓran
▁tmeṭṭut
mer
sert
xeddim
eqqel
▁is
▁riɣ
▁yura
▁gma-
▁t-
▁muḥ
ti
mmeslay
zemren
▁iɣil
▁qqaren
ɣeɣ
▁yugi
kfa
▁tallit
eɣs
▁sliɣ
karḍ
▁tafat
▁tettwali
nek
ɣmis
▁ilin
▁deg-
ren
ef
et
urar
▁acu-t
dlisen
iwant
wen
reɣ
▁axeddim
akud
▁tlelli
amenzu
qt
rus
▁tuf
llan
diɣ
alt
▁wul
nemt
▁yid-n
gal
▁walaɣ
▁ug
▁ttxemmime
▁tem
eḥwaj
▁yečča
▁yesɛ
ssiwle
▁rnu
ric
▁tilelli
▁tug
-i
▁wugur
▁yebɣ
gdud
▁aql-a
▁teḥwaj
▁teffeɣ
ili
zwar
xiṛ
▁lḥ
▁r
▁tegr
▁annect-
▁lqa
▁iḍe
▁tawwurt
▁yewwi
naɣ
wali
ḥwaj
sum
▁sri
▁taqcict
bel
▁amcic
▁nniɣ-as
▁teqqel
armi
▁tkeṛṛust
ameqran
▁ḥemmlen
▁tmes
▁ruḥ
▁iteddu
▁teẓr
-k
▁tezmert
▁ccek
▁gma
▁berr
yin
▁kun
eḥ
▁tefr
▁zdat
▁nnan-
akan
▁ud
▁ɣezzif
▁semm
▁us
exd
▁tessnem
▁ll
aṭas
▁tik
▁ziɣ
▁tteddu
▁yiman-ine
▁ssin
▁rray
▁txedmem
▁wadda
▁ṭṭ
▁tezmer
nes
afag
▁ttwali
rin
awla
▁ṛ
▁d-t
▁ufus
bire
▁tessne
qr
▁was
▁tal
-t-
▁yemd
kal
henn
-as
▁qqleɣ
▁wul-i
emt
▁twalam
edder
▁teddam
▁azul
▁ci
▁d-n
un
teɣ
▁afus
▁sseb
▁ssu
ara
awen
▁ttxil-k
▁d-yusa
eqqim
▁yurar
▁ufiɣ
▁q
▁tuɣ
▁um
feɣ
ḥebs
▁aqcic
▁ata
▁nn
▁yewwi-
sut
▁sw
▁iseggasen
lust
▁muq
ga
▁tetteddum
▁temsalt
ɣaws
▁ccɣel
▁leh
tis
▁leɛqel
ran
lwi
▁tmett
ruḥ
fa
▁lbaṭ
▁ɛli
▁k
▁yer
▁leḥ
▁tell
▁čče
▁učči
▁usawal
▁temmut
allen
▁amaynu
etteddu
hat
riɣ
▁tafṛ
ci
▁tg
▁iwala
▁ka
▁taman
ru
▁yeɣ
▁imalas
▁yefka
▁yeɣra
▁tlat
▁wama
▁ɣer-s
maḍ
▁imez
▁tettu
▁teg
▁gar-a
swa
▁tmer
▁ẓr
c
▁yeṭṭef
ut
▁uɣalen
▁igerdan
nt
▁aselkim
▁ffɣeɣ
med
▁qa
gnit
▁wiy
▁tasnasɣalt
▁terb
▁mmi
▁taswiɛt
▁uga
lemmas
bex
ksu
▁tɣ
ḥ
idles
▁yimd
▁meṛṛ
len
▁teɣs
ttidir
▁taz
▁uḥ
amecṭuḥ
▁yidi
▁tessen
▁ffɣen
▁tid
erfa
▁igen
ugdu
▁tezmir
▁ibedde
▁tesɛ
lu
▁saɛid
wala
▁tall
▁yessawe
▁ḥa
▁ha
▁taɣ
▁teɣ
ǧi
▁tmurt-nn
di
idi
▁usensu
▁d-tesɣam
▁taf
edd
▁iɣer
▁ussan-
▁ussan
▁tifr
▁zemren
zmir
▁efk-
wez
fuk
▁zg
esɛi
▁tezde
▁seg-sen
ɣi
▁ruḥen
zi
▁cfi
▁yew
yezga
sarameɣ
▁tga
▁llin
▁lwe
▁teɣz
zemmur
▁twacult
▁tbedde
du
▁tmeɣra
▁wali
▁targit
▁tala
▁un
▁teẓrem
zal
▁ṛuḥ
ussna
▁une
ul
▁imir
▁ungal
▁tedd
zzayri
▁tteddun
us
ksi
▁bu
emmel
▁adlis-
▁ɣur-sen
▁gen
▁yeɛre
▁qqlen
▁lxi
▁urgaz
kem
▁yeǧǧa
▁lebɣi
▁amez
▁ss
▁uzge
lmeẓy
▁tewwurt
ezza
▁yenɣa
▁sn
▁xa
esɛa
▁nečč
mek
urt
▁ili
aɛrab
sefk
▁lexba
▁teččem
xedmen
ɣs
▁tuff
▁leqd
meẓyan
▁d-in
msujji
maɛ
▁txeddme
id
am
amsalt
amek
▁awi
▁tutlay
yusa
nun
ɛelme
▁yeṭṭe
▁asirem
uf
▁tban
▁qqlent
▁tettnadi
▁ul
▁ɣsen
▁uẓ
▁leḥsab-i
▁ugade
▁d-tas
effeɣ
ɣal
▁asawal
▁ddwa
▁nuda
▁ẓre
▁se
sna
iq
▁tez
▁terra
▁ḥed
▁ulac-it
umi
▁yerr
eh
▁warrac
▁yerw
▁aɣr
▁diri
▁truḥe
▁iyya
▁yessi
▁aql-ik
lt
▁txedd
▁qqareɣ
ka
▁winna
▁tawim
ris
▁twala
▁f
qqel
marikan
um
▁tebda
▁yettu
▁uɣale
▁teddun
▁meqqre
tteddu
▁tṛuḥ
▁ddaw
▁ddab
▁urar
▁usi
▁iwu
▁fehme
ṛuḥ
ubeṛ
deɣ
ṭas
▁temlilit
▁tekkat
nuda
ij
▁ččiɣ
▁swa
▁leqra
ines
▁yid
graw
zwaw
▁ttmeslaye
▁teqqle
▁d-tuɣal
rem
eqqar
▁yet
▁d-nn
cebḥen
▁sɣur
ay
hin
▁yekker
mellal
▁ttawi
o
▁d-tenna
▁azre
▁txeddmem
dukal
usa
▁unn
▁zzi
▁aci
yiɣ
nu
ac
eɛna
▁udem
▁tessawal
▁usel
▁asaru
▁yidrimen
▁yettru
kka
▁yefka-
▁waye
▁lal
mlilit
▁tezm
kke
gli
▁teqqime
▁bab
▁lecɣal
erdan
macint
▁waggur
▁teẓra
▁tilaw
▁tikti
eḥb
▁neg
▁temsu
▁tikk
▁wala
wura
▁waqil
kent
▁truḥem
▁d-tasem
▁atta
cu
▁ččan
ferɛun
▁nettwali
▁sbiṭ
▁nek
▁j
rgaz
▁yez
ḥel
▁ḥemmleɣ-k
▁sɛ
eṛ
▁az
akk
▁asel
▁tud
▁teqqlem
▁d-ase
smaqqalin
▁tedder
▁yuli
▁ufella
▁tigaw
▁aẓawa
▁tazz
▁alamm
▁d-tus
▁uɣeɣ-
▁wudem
amen
▁rewle
drimen
▁mass
▁yettaru
▁as-d
▁ssawalen
▁teɣli
▁warraw-i
numi
zekka
ettmeslay
▁wazal
ebɛa
baḥ
wel
▁ge
▁tugi
▁rr
▁wass-
▁lqah
▁yeskerk
▁taluft
gun
teddu
wasif
▁d-it
eɛya
pa
iw
▁yelli-
▁imed
igerdan
▁iman-nsen
amellal
ult
▁ayla-
▁kecme
▁yezzi
if-it
▁ḥemm
oo
▁teẓ
▁tenw
siwel
▁ḥebsen
▁zzheṛ
daxel
cinwa
▁tkemm
▁aqjun
hi
aḍu
im
▁wed
▁tɣaw
▁ttxil-
ḍar
▁tissi
tṛuḥ
ḥeqq
▁gan
amsa
▁tzedɣe
ttan
▁awi-
▁tettru
▁cci
▁wucc
▁yec
▁tečča
▁tewwi
aselmad
▁tettili
▁tewweḍ
selmad
sirem
▁ttwalin
▁d-yawi
mawen
▁ḥebse
▁bedd
▁nezz
nawi
▁ttaru
▁weltma
ernu
▁aql-iken
mut
lla
▁tiz
amedyaz
cki
▁ifaz
ɣil
▁ddre
iyi
▁nw
xemmem
▁tarb
kyo
est
af
lul
▁deg-wen
▁yesla
ḥwaje
meɣ
▁tli
ffɣen
▁leɛme
▁wur
▁teqcict
ikke
▁sel
uḍ
lemt
▁lḥa
▁sli
ettxemmim
▁isem
ɛedda
h
▁tamdint
▁tzedɣem
hal
▁ant
eẓri
▁anda-t
ṭu
ineggura
▁tamacint
efhem
essaram
ɣelli
keffa
ddurt
wata
zzel
asi
▁terf
▁tuccḍ
▁aɣer
japun
▁ḥemmlent
▁tamu
▁weltma-
▁d-yekk
mma
▁axxam-i
▁rriɣ
▁zz
▁d-yus
▁asefru
▁ferḥ
yuɣal
▁lqer
eǧ
yul
rkas
▁ddin
▁meẓẓiye
ḥulfa
▁z
▁yuḍ
iselmad
ɛum
▁ttette
ewwu
▁ǧǧ
ha
▁agrud
▁faḍ
▁mmte
▁ɛerḍe
susm
ɣli
ak
rrus
▁tam
▁aḥr
▁unẓ
▁usafag
▁lḥu
▁yiman-in
▁tif
lmend
▁asaw
wenna
▁iselma
▁li
ken
uklal
kk
▁lexla
▁tṛuḥem
▁aẓ
ban
▁teslam
▁turar
qbay
lam
▁yennum
daɣ
▁tettban
▁d-yeww
▁tmen
▁imawlan
iri
▁inu
▁d-tennam
dukkl
▁yim
ud
▁d-tenn
kelt
mah
▁usu
▁letn
▁imeṭṭ
inu
nwa
▁usa
ḥb
▁lluẓe
efki
▁uselkim
▁wwin
▁lu
wet
▁tneččit
jed
berkan
▁teffrem
▁nit
lit
bḥi
▁ɛedda
▁igellil
▁ṛuḥen
▁aḥ
ḍi
▁tla
gan
▁uɣal
▁ilemẓi
fṛans
▁t-xedme
nen
▁tettekle
▁meqq
▁lha
▁tus
▁d-uɣalen
fhime
▁ul-i
eff
▁ik
nut
▁yini
dan
▁yettwa
aceb
▁agellid
art
▁yeddem
swi
▁diri-t
san
▁yetta
▁yeldi
▁tasa
ttxemmim
ttuɣ
▁iz
tett
▁tfehme
▁teqqar
▁tessin
nadi
▁tisura
qqimen
▁ah
ɛer
iban
-tt
▁yef
▁tecb
naẓur
▁ɣlay
enni
awt
▁taɣu
▁imir-n
▁yuzz
▁yeffe
▁assa
xaṭ
fra
▁itteddu
▁turarem
▁k-
▁kifkif
wan
▁yemme
lid
▁as-t
▁umkan
iwel
ṛen
▁tezga
ɣur
▁as-
cennu
▁nekn
▁tawla
▁d-nni
▁tawḍe
ṭṭfen
-nsen
mert
▁ɣi
▁wehme
▁jeddi
▁taj
selmed
▁tike
▁d-yaw
▁seg-
deb
▁rz
ziɣ
▁lmend
efs
▁yedlisen
tni
emlil
▁ufan
▁yebna
suref
ddem
ttett
▁d-qqare
▁terw
▁yebɛ
zeww
▁teḥwaǧ
▁terwi
▁uz
lufa
elha
▁takeṛṛust-
▁ttgen
▁iɛawe
erza
ɛziz
ɣeṛ
▁ttidiren
gum
▁ssne
▁ini
▁asemm
ttɣimi
to
▁wenẓ
amt
irt
elmed
▁amedya
▁fk
eẓra
▁ɣer-
▁yuf
▁neẓr
▁tafr
ettwali
▁d-tesɣa
ẓ
▁tuɣmas
▁ameddakel
▁yib
ajapuni
▁tuḍ
▁tettmeslay
nehh
ebḥi
▁nniɣ-
▁yeḥma
▁tette
▁lḥi
▁tna
ṛeḥ
▁sett
medyaz
eq
▁teɛy
▁teswiɛt
▁tecf
usiɣ
▁udlis
▁men
▁usan
▁fessus
ɛ
xedd
keṛ
▁ttge
▁lɣa
▁aw
▁tmeddurt
▁tabɣest
▁nettu
▁tneɣ
▁yelh
▁meẓẓiy
▁ileḥḥu
yaziḍ
itent
rnu
bedd
▁yimawlan
mel
▁nxe
tturar
gem
▁lɛa
bedde
ttazzal
ɣ-d
▁tewwim
ebda
▁leɛnaya-
▁yif
▁keṛhe
▁wakk
aswa
▁teɣrem
▁umḍi
▁bxi
▁akayad
ttwali
▁tur
▁temr
▁yewwe
esɣa
▁tturare
▁tasarut
▁wus
lhan
▁tabṛat
niḍ
▁temsal
cennay
▁imawlan-i
want
▁ẓṛ
▁qeble
▁id
▁il
▁tab
spenyul
▁idles
sɛi
▁yeqq
gellid
nd
▁yezg
▁iman-ine
▁yerẓ
-wen
▁way
▁yeḍ
ečč
▁ag
▁wallen-i
▁sser
▁newweḍ
▁yerẓa
cac
▁yuɛ
▁udem-i
▁d-ya
yini
▁yeḍr
▁taqbu
emm
ttḥulfu
uḍnen
▁tasiwant
ap
▁timu
▁tge
zyi
stufa
▁yettarra
▁lka
▁yug
▁anag
ekker
▁leḥsab
meqran
▁tm
ttṛaju
net
▁times
ek
▁mḥe
ger
yu
▁tak
▁yessaw
▁tṛuḥe
sefru
ct
▁ceɣle
▁usen
▁ssaɛa
eḍra
▁ane
-t
▁tadi
▁fi
ahil
▁yenna-y
▁ttili
ɛyi
▁asensu
ula
ikt
▁meẓẓi
kker
rum
▁ɣr
▁iṣeḥḥa
▁taqendurt
din
▁teswe
dd
▁tmaz
ebrid
▁yekkes
▁yeffeɣ-
eklu
▁yern
▁ttazzale
▁tesna
▁tefra
▁uqcic
▁waɛm
x
rrif
▁twalim
▁ttess
sent
▁tmurt-a
ffud
▁tefs
▁amegga
meɣr
ett
ḥemmlen
nda
fk
ji
▁yaru
▁err
▁uqerruy-i
za
▁asawal-ine
lal
▁yeɛna
▁tezmire
▁tim
▁zewǧe
zmert
▁yisem
qas
ṣ
▁yil
▁tewɛe
mura
ugar
▁tegz
cen
awi
▁bedde
▁yeḥwaǧ
▁tiṭ
▁tec
▁agi
▁refde
sin
▁rf
eqs
mettant
hn
▁ɣa
qa
▁uqerru
ttmeslay
▁wud
▁d-yerr
ttamne
▁yelluẓ
▁yex
iwen
rfa
ettnadi
▁be
▁feṛḥ
▁iɛedd
▁tesnasɣalt
▁cnu
nar
▁nnan
▁tettarum
uḥ
qqa
▁tuttra
▁neɛre
aṛ
aci
▁tirga
▁iqedd
kkes
ɣen
nniḍ
▁bel
▁taḍ
▁ig
▁yessuter
ixedd
efk
aw
neḍ
ufiɣ
▁yegz
ɛawne
▁sgunfu
▁d-ffɣe
▁eǧǧ-i
▁ukeffa
erru
▁naf
ṛan
▁tugad
exṣ
asegbar
▁imal
▁tawa
ferḥ
bɣi
▁teɣr
▁ḥemmleɣ-ke
yirt
▁ciṭ
▁tze
▁nadi
ɛid
kt
ulli
nwi
▁d-yeqq
▁isef
▁tasiwant-
▁yeskiddib
▁irkasen
arrac
▁yezm
▁tufa
ettkel
▁aqerru
aṭṭan
▁t-wal
ju
ǧehd
▁teqq
kur
▁uselmad
▁yiman
elt
▁tesɛu
▁ceḍḥe
▁taḥa
▁muḥe
yaf
yettban
ab
ttess
▁tas
▁aseggas-
▁yettuɣal
▁ẓẓay
▁ufiɣ-
alemmas
eddun
ttraju
ussu
▁tz
▁ttarun
▁wal
▁ṣṣeḥ
▁nessa
▁tku
niɣ
edrim
effu
ennu
ufan
▁yeẓẓ
▁isew
▁ungif
▁ɛecr
▁temẓi
akt
usu
▁t-yuɣ
▁lm
▁afus-i
rra
ehle
▁idire
▁d-yi
-ẓr
▁tkecme
▁teffre
qelle
der
amɣar
ɣu
tern
▁sa
▁tufam
▁yeqqe
▁zeddig
nṣib
gna
▁tecnu
▁iɣef
aɛ
▁d-yu
▁aɛe
kul
azeggaɣ
▁tessinem
▁farid
▁nwal
rda
ɛawen
▁acuɣe
▁d-tase
▁mmuqq
▁marika
ant
exxa
▁teffe
ebb
-ik
▁xems
▁abu
▁wak
▁yuɣ-
ettili
lsa
▁kemmlen
▁yerra-
▁tḥa
▁taɣect
▁nnum
▁ttmeslay
▁ax
reḥ
ec
-asen
ttaggad
rab
▁iẓem
▁ṭṭb
▁čč
fellaḥ
▁tar
xuṣṣ
▁yuk
ilelli
▁tarwa
▁ffeɣ
▁ifassen
efṛe
mmut
▁ṛṛu
▁yej
afa
hel
▁wudem-i
▁meqqe
▁yebd
▁asaru-
xedm
▁yeǧǧ
▁izem
uk
▁isal
▁tenna
▁ssi
edda
ar-a
▁tess
▁wallen
▁wawal-i
ebba
▁uḍne
mmas
▁teḍr
▁yeẓr
ecḍe
▁tutlayt-n
▁ufus-i
wt
▁tewwḍem
meddit
▁yeff
▁lǧa
▁selle
yeffeɣ
▁yimi
-
▁d-tuɣ
ennum
atrar
uft
▁nell
▁yettɛ
▁itri
▁ttru
tezzi
▁ẓẓ
tess
▁cennu
▁tesɛum
▁ic
imenɣi
ɛli
uga
ig
ttili
▁yezw
▁tijeǧǧigin
▁kem
▁ameɣ
▁tems
▁ib
▁lwiz
meɛ
▁yes-s
▁yime
▁tafu
▁lx
as-d
dir
isura
▁d-ta
qqleɣ
▁yimawlan-i
▁taw
ew
▁nedd
▁eǧǧ
▁ttun
▁ttagad
▁san
▁ccet
gu
ṛab
▁ɣur
▁iger
▁teɣra
▁nniɣ
eṣṣ
gerr
▁txellṣe
ḥa
▁ike
brat
▁allen-i
ful
▁arraw-i
kukr
ttraǧu
meɣra
▁urare
ewhem
ub
▁temd
▁tikkelt-
▁anef-
▁aten
▁cf
▁ṭṭfen
ettwassne
▁ḥulf
▁kkre
▁tama-nn
▁d-yenn
▁lḥaǧ
▁regglen
▁d-wwi
ekka
imer
qqim
▁wejde
▁amawal
aẓur
yar
amul
▁qqel
cɣel
▁aql-ike
▁iḥ
▁ṭṭaq
ezga
mekti
mezwaru
rew
tuɣ
heddre
ehwa
▁issin
abu
▁isem-in
▁lebḥe
▁isel
▁yis-s
▁tessawe
▁lbir
ism
eɛre
▁ice
▁iman-nwen
▁ttek
▁tudert-n
ṭṭef
surif
▁kkreɣ
▁ɣlaye
▁yen
-yuɣ
▁ṣṣ
hina
▁taɛ
▁ssaw
▁yesseqd
▁ṭṭl
▁tečče
far
▁ak-
▁dih
▁nniɣ-a
▁tameṭṭut-i
sɣa
fhem
usem
ffeɣ
etti
ttagad
▁tezw
▁seg-s
▁lḥess
▁yebr
▁mlale
steqs
▁ini-y
he
fekka
▁yessu
sett
▁ir
dder
▁tfuk
mmel
ne
▁tɛum
menzu
eqqa
qdim
macahut
▁ṛṛay
▁ab
▁nezzi
▁ddem
▁tesla
▁leb
jem
▁qqaren-
▁tebn
mcum
▁teskerk
▁aru
▁lwaḥi
▁in
edha
nna
ifassen
mal
▁ase
▁teb
▁yedd
▁taci
ira
mɣar
▁amahil-
awḍe
kay
▁mazal-iken
argu
▁lq
▁lḥeq
▁t-i
▁wallaɣ
xellṣe
▁teqcic
ddan
▁tmeṭṭut-i
▁tkeṛṛus
▁teɣri
gdi
▁leɛ
▁nufa
▁iset
acennay
uri
iɣil
kkin
▁kkan
raci
eɛd
aṭa
iyit
ku
aru
ṭa
ffir
▁mazal-ik
alu
▁yerɣa
▁tlem
▁tettaru
▁tke
▁texxamt-
▁kkaten
zil
▁tṣe
▁ttna
▁tel
as-in
▁ttawin
▁yis
ṣe
ag
enna
eṣ
▁lex
ɣabe
ettṛaju
ɛi
▁med
lemme
▁aɣez
lem
▁ilu
▁uletma
▁axi
selb
▁ter
▁una
▁tizlit
gris
rim
▁yeb
▁sdaxel
▁umcic
▁til
▁inebgi
asekla
▁sy
-m
emsujji
▁uxxam-nn
▁ṭṭfe
▁usala
ttekle
▁turare
▁tameṭṭut-
aneɣmas
kkreɣ
yamin
yefk
gerra
emlal
▁theddṛe
ssawalen
steqsa
▁axxam-nn
funas
▁ber
msefham
ewwi
ennuɣ
▁lule
▁ldi
ss
▁sma
▁aggur
areɣ
acir
▁tamettant
faq
▁ise
eḍru
nta
▁wat
nna-as
▁yus
▁rebḥeɣ
semmaḍ
▁yisem-i
▁takeṛṛust-in
▁rn
ǧǧ
▁ɣlin
ugad
seggasen
▁ixell
lemde
▁ayla-nsen
keyy
▁tiɣri
yla
▁ttu
izi
end
▁lɣ
▁tull
erkant
▁tuɣalem
▁yise
ber
uṛt
ẓawa
sem
▁tter
▁imsi
▁isaf
skerkse
eḥwaǧ
▁leḥmala
nas
iman-nsen
lan
▁ix
▁sarameɣ
▁k-iɛ
▁yuga
k-yehwa
erreḥ
wraɣ
enwi
ḥwaǧe
ben
nem
semm
ala
fun
erna
▁yeṣ
▁yettm
acu
▁iru
▁yeɛjeb-
▁yigen
▁yes-sen
t-d
fer
▁tẓa
rez
ilemẓi
▁iḥemmel-i
▁fer
▁tt
▁afr
▁uḥdiq
ilel
▁arm
ɛna
▁anef
▁lɛi
▁aẓa
▁akamyun
azelmaḍ
▁ssma
meṛ
tt
rru
ẓriɣ
▁ttruḥu
ter
-yas
frar
wer
ɛya
▁dak
▁aker
▁taddart-nn
eṭṭ
▁twal
▁baṭ
asif
▁teɣram
▁tmedy
aman
eḥma
▁teɣre
▁idrimen-in
▁tafra
▁alma
ddu
yel
▁uydi-
▁weh
▁tamri
yun
dya
▁nett
▁ɣe
▁yims
▁tiss
▁tmu
▁afella
▁yeɛjeb-i
liz
if
▁ttaggad
▁warraw
▁ddeɛw
▁ṛṛ
tin
▁sɛeddi
▁yeggum
▁laɛ
aren
▁tad
▁init-
kanadi
▁tecfa
rid
▁tafyirt
ura
mẓi
ɛerḍe
▁tewwet
▁terr
▁kem-
tteddun
mmar
▁aɛ
▁ɣelḍe
ẓra
▁tezg
ten
yifen
▁yettb
▁terra-
▁nnume
▁yell
▁ssiride
eṭṭa
▁uletma-
▁ixed
▁baba-t
ast
j
▁k-id-
▁yiɣ
▁abrid-i
▁yel
▁kkse
▁keṛhen
ker
▁isɛa
cliɛe
nit
▁teǧǧ
▁aselkim-in
ẓr
▁amkan-
tube
ṛa
ameslub
ufra
banen
▁iṭ
▁terfi
▁nem
▁illu
qcic
lmed
liḥ
▁tase
▁ttett
▁abrid-
rebb
▁tessaw
esgunfu
eṭṭef
ḍa
msefhame
▁watmaten
ǧǧa
ada
eqqaṛ
tusiḍ
▁ifu
▁d-tetta
▁tlemmde
efka
▁allen
ɛeddi
▁nneḥ
▁teḥ
n-d
▁afu
tut
▁ilem
fess
de
▁lhan
▁wann
▁teld
mɣart
▁aql-
eǧǧa
▁teẓṛam
rebḥe
▁yeq
▁tabṛat-
▁ddi
imeqqran
▁tewwur
steɛfu
weɛ
▁teẓṛ
zza
lin
▁ddnub
▁wam
mmi
ca
▁testufa
▁yemma-twen
ess
▁yečču
▁allaɣ
weq
▁nnger
mcic
aṣ
su
zga
▁lh
ssaram
uṛ
▁iles
▁irebb
▁nehhṛe
▁sɣur-s
▁iḥe
▁jeddi-
kabar
aḥ
igi
arraz
mmi-
▁iman-
▁af
ulac
ḍu
▁sim
ekkat
▁tafyirt-
tlat
▁ugi
serreḥ
▁ccak
awas
▁teɛjeb-
▁ṛṛa
▁tesw
leq
▁sers
▁tk
enwal
▁aj
▁arraw
▁waṭ
ah
ẓru
▁ims
ux
▁yeẓra-t
▁tettmeslaye
▁beṛka
▁tew
ehb
▁ḥemmlen-ten
▁tlemm
deq
selkim
▁re
▁d-te
▁awal-i
mu
▁ẓid
▁medle
▁tims
amuss
xd
▁tum
ugur
▁tameɣ
aṭi
inwa
kecmen
▁taxat
laf
iwlem
▁nemme
▁setti
▁wag
yexd
▁lǧ
gen
ḥuss
aska
msalt
▁ilaq-a
▁yum
▁anwa-
▁ja
eẓ
▁nekki
hṛe
ǧ
▁ifassen-i
▁iceḍḍiḍen-ine
iya
▁ṣṣut
▁uqjun
usef
agar
▁tezz
uḥwaǧe
yya
▁yečča-t
▁yiles
zwu
▁yekk
xxam
amasiḥi
▁inebg
▁imc
▁ɛer
▁iḥu
zha
▁wallaɣ-i
ɣar
tel
esla
sell
mecṭuḥ
eggan
▁tasu
tif
▁fr
▁rebḥe
▁watmaten-i
▁nefka
▁ssawaḍe
nnaɣ
jd
▁hed
▁ṛṛay-i
esɛu
def
ttarra
▁yeḥ
txedme
▁jjmeɣ-k
▁lqedd
▁iza
fud
essar
▁annect
mmekt
heb
▁yuker
▁iber
▁ner
▁tsew
dmeɣ
wacult
▁wwte
aṣe
▁tturar
▁tasnasɣalt-
▁ige
iṭ
bri
nyu
zzal
sri
iḥa
yewwi
ama
▁s-t
▁isemma
tesɣa
aḥli
▁unez
▁day
tay
▁yeɛn
▁tmany
▁yeffu
ucc
kin
bnan
▁ttagade
▁ṭa
▁daye
eslem
▁argaz-
▁ayla
▁tɣi
eḥs
▁iw
drim
iɣimi
ameɛ
▁bnan
rḍa
▁yesse
▁tagu
baɛ
ttwassne
▁uḍa
▁nenna-
japuni
ifen
▁tafe
▁taga
▁axxam-
▁ɛl
sis
ǧal
serwal
slemde
▁nuɣ
ebna
qqar
▁ẓri
hedre
▁aydi-in
▁meqqr
yili
ettarra
sara
▁lyamin
exsi
ungal
▁tamez
brid
▁err-
nniɣ
annect-
wed
▁lǧen
-tge
essen
gle
▁ttaw
▁teɛjeb-i
▁tn
▁ɛe
idis
ḍt
lit-a
iqa
▁yi-iɛaw
▁imawlan-nwen
▁lehdur
▁teff
▁tuz
▁zeddige
▁lim
be
ẓre
bɣa
amel
wehme
ref
dam
▁aṭa
▁uselkim-
dar
nnan
▁nna
▁yige
mend
saɛ
▁yile
mil
whem
▁ttkel
▁azeg
ze
jehde
▁nnehta
mmute
ewwa
▁yillu
▁ttn
▁yenza
▁tri
luf
ali
▁ttxil-wen
rmi
▁teṭṭ
▁kem-i
▁tf
▁imen
neggaru
▁tissine
gren
ɛebbuḍ
▁txed
bac
▁imu
▁wan
▁tafekka
▁urga
▁al
▁ku
wwet
ezwar
waḥ
ḥwaǧ
nus
ṭi
teqqar
▁ṣṣbe
nuz
tul
meẓẓuɣ
▁tma
▁ɣeṛ
ṭṭ
▁kk
▁ke
feḍ
▁temm
▁yifri
esseww
erɛ
rir
ttajja
dab
▁as-n
ugi
▁ccɣel-i
▁t-yesɛ
eldi
▁tessine
ehba
uq
qi
bi
gar
uxx
efra
▁yeẓ
nemm
▁tarwiḥt
isiw
ẓẓa
▁win-in
sgunfu
udd
res
▁ak-d-
▁lba
▁ṭṭa
nenna
tab
ɛqel
▁yiḍe
▁yul
▁usensu-
qeble
ččur
erra-t
▁teqqe
▁tteff
▁tfunas
▁mm
▁weɣr
ellu
waǧ
▁tkemmlem
raz
▁weltma-twen
▁tasedda
▁taqb
ye
▁tafti
enza
▁tegl
ṛum
aẓ
▁yette
▁yeɣl
▁lɛ
▁ḥemmlen-
send
▁ḥs
▁iqba
bɣest
kemm
enqe
▁ssut
rreg
▁sl
▁ssers
ceḍḥe
yettuɣal
ḥas
▁naw
ezzenz
▁umkan-i
urga
▁lǧi
t-id
ass-a
udde
lil
▁tams
▁kkate
err
▁mazal-
▁inimt-
▁iqelle
ḥlaw
ggade
eww
iz
t-as
▁tay
▁inna
▁ticr
▁abeṛ
▁iyi-
▁ddq
ameslay
ssin
▁asm
umin
me
jji
ani
▁yezge
▁lew
erne
eddem
▁ifk
elluẓe
▁d-il
▁yeɛ
ɛeggu
▁anda-ten
jenwi
▁well
▁ɛaw
qab
zem
yas
▁tume
p
▁uxxam-
yes
aca
neẓr
-in
▁icen
ɣerma
▁yesw
nqe
eɛ
ill
▁tkemmle
▁imecṭ
eb
iman
agnu
eṭṭfe
ssa
rif
▁leǧ
ɣrem
kayad
▁tmacahut
▁qqaṛe
wwin
▁swe
▁t-y
ḍris
ḥemme
eẓru
▁tasa-
▁tismi
▁tmurt-n
ssawaḍ
ɣelnaw
▁aɣ-i
▁neww
hil
▁ass-n
hed
-aɣ
▁iẓe
menɣi
ṭuḥ
ik
ikk
▁meɛ
-nwen
fag
▁wamm
izwa
umu
aten
▁tesl
▁ṛe
rni
▁ru
▁tta
nnect-
ader
▁na
nsa
▁umd
run
▁lḥe
neɣr
gza
tagga
dint
nan
▁asa
mlal
▁neh
sawal-in
itra
ellid
▁yebḍa
efru
▁awen-
▁tti
▁ttwa
▁gguma
zwa
▁tewwi-t
▁reg
▁ume
ttban
▁yettna
magrad
▁iseww
edde
cfi
-ssiw
▁yečča-ten
ettban
kkat
▁neɛ
▁iɣel
▁argaz-i
▁ize
▁axe
tkecme
▁yixe
ssan
▁asem
▁leq
▁tuɣmest
▁ans
▁amdakel-i
▁d-yettarra
▁tuyat
a-tt-
▁amar
ɣezz
twal
▁aqcic-
msa
ɛam
emsefham
qqaṛ
▁ugris
ari
iset
▁sak
leḥḥu
wwu
▁ɣiw
uder
teffeɣ
▁tane
nit-a
rr
▁amda
mar
▁h
▁tḥeb
qqaren
▁tmurt-i
▁sur
▁yes-wen
▁umeẓ
▁ṭ
▁iwe
uki
muqq
▁yiger
mezw
▁tuk
▁warraz
▁ifassen-n
sarut
▁lg
ḥri
▁taɣa
▁yeǧ
aḍi
wlaf
gl
irra
durt
egla
laq
zeg
ila
aq
msal
siw
▁asekl
las
▁ccɣel-
▁yeɣra-
neččit
▁tawi
▁tekki
fiɣ
▁tamen
meḥ
ḥi
▁iṣ
▁tiɣi
▁waɛ
lḥa
▁ǧ
▁d-yetta
cc
▁tikta
ll
aɛi
tettu
▁ttkeyyife
ḥebse
▁uy
▁sell
hem
setḥ
▁ilel
ssef
hen
nɣa
iser
▁yiz
hle
▁uɣer
▁arraw-nwen
▁iɛ
-ine
▁twali
▁yimi-
▁agd
gin
▁tne
ceḍ
aydi
se
id-m
qleɣ
awin
meɣbun
rḍ
iɛa
saru
▁fessuse
ɛebd
t-yawi
fen
▁tfer
▁tiḥ
▁aqeddac
▁tleggit
edmeɣ
▁yiman-
zin
▁nu
▁uza
dda
jebb
anu
▁d-ww
ezz
erb
bed
ecfa
bbi
seg
essu
mḍ
▁ube
ɛun
▁tame
eṣbe
ge
eḥri
xṣ
ḥar
ack
ayet
qef
nin
mit
eld
nag
▁ken-
▁iɛel
iman-nwen
▁tetta
rǧ
stṛal
uma
▁tuɣale
xsi
▁sima
qim
▁web
▁čči
tren
egnit
▁yessew
bur
ɛebb
ettess
esselmad
▁arraw-
▁ttak
-w
ki
azwa
▁teẓre
▁tern
et-iyi
ell
aḍa
▁tzemm
▁amu
kebb
essin
▁ɛedd
uru
▁aga
▁yifa
idiren
▁yenɣ
▁yedde
iẓ
kkal
s-nni
waw
▁ass-
azen
awalen
▁umeɣ
udmaw
▁sɣur-
ulen
▁tesse
▁ṣṣifa
▁ask
▁tettṛa
ǧib
▁itbir
ẓẓ
▁uzz
edlis
mul
▁tekk
cint
ata
id-i
emdan
ečča
ceɣle
▁irkasen-in
lḥaǧ
ttfunzur
int
▁ayɣe
▁tiw
▁lw
▁ḥem
▁yeɣr
eski
baz
-aw
▁imedya
berka
▁ḥe
▁wejd
asent
▁yur
cum
hedr
ert
▁ttq
▁lxe
ejd
teɣrem
▁lb
▁beṛka-ken
▁agḍiḍ
▁tuḥdiq
bb
▁temmu
anadi
dde
emri
rza
tub
essa
ǧu
ɛawn
grud
▁d-yett
segg
eqq
▁diɣ
fti
▁yimsu
selmade
zmum
erda
seɛdi
lawa
seqd
-it
▁taxxamt-
fehme
isent
▁ub
▁take
▁tesnasɣalt-
hwa
▁kečči
dles
rad
-ken
sawalen
leḥ
ttmesxiṛ
▁tekr
▁yes-
eg-wen
ksa
qel
▁winn
xedmemt
ggan
▁iq
▁yetti
ahb
sellek
yi-
▁taẓ
zux
s-d
▁tda
▁ssneɣ-
▁inna-as
imez
ss-a
ccḍ
▁iman-in
sebt
mehb
mm
▁tinn
ḥir
▁teɣl
▁iyi-t
mh
▁gi
uj
▁nes
estufa
▁sbeḥ
▁weɣ
ane
rren
ewwi-
ṣṣ
susme
▁tq
suf
leb
ǧa
lif
▁tl
▁uqcic-
ffɣeɣ
▁lbabu
lis
yub
zeggaɣ
lya
▁use
▁fa
ecfi
mezda
kni
▁d-yef
gel
▁uxxam-i
lek
fe
walin
yeḥma
lay
egg
▁aqjun-
▁sdat-
elmad
ẓall
učči
yant
▁aseg
saka
ɛǧ
▁tqa
ṣbe
▁ttxil-we
qe
▁weḥd
n-ine
akke
▁uc
kim
ggar
feṛḥe
ettk
▁hedd
yan
ire
kel
▁d-tecliɛe
rḍe
ggad
zgel
▁time
ṭan
▁tub
▁tmeṭṭut-in
aynut
elluẓ
▁aber
gg
▁aza
ɣab
teḍ
lɛa
cḍe
zg
neml
wwur
imal
tezga
▁ttkeyyifen
wil
▁tiy
▁tse
▁yeddem-
▁uk
▁yem
nger
eẓra-t
m-in
ttruḥu
etta
ɛed
ḥc
▁reb
▁tt-f
beṛṛan
▁ṣṣb
-tɛaw
nuten
wtem
az
axel
wem
▁t-yu
▁d-kk
ufi
umen
exla
▁yin
▁irra-y
▁aq
▁uḍ
▁yessa
kaṛ
▁mmu
ḍe
▁rre
tusa
cir
memt
▁warraw-
arga
imt
▁imawlan-n
ehl
ṣṣa
uten
dun
biḥ
cce
ṛt
▁ust
ebɣi
▁tneččit-
▁uɣ
wah
ɛy
lelli
ass
bab
ned
▁d-tu
▁ibe
▁leḥb
▁tuc
ɛrab
erka
yeq
nezzi
▁yegg
▁mu
▁lmel
ebbe
▁td
jmeɛ
eẓẓu
xeddme
fad
t-a
ɣem
▁awal-
yella
we
▁ikker
bt
sm
▁irkasen-
kas
sef
▁aku
ttxemmime
▁temg
▁awe
mur
jer
-yi
mes
dlis
▁tḥ
kra
▁yisen
lha
eqqran
qen
▁je
gur
▁tr
ɣaḍ
bda
▁tudert-
▁sr
kamyun
ẓrig
ijeǧǧig
iḥ
▁arraw-n
nekc
▁mazal-i
nef
▁teswi
▁tmeɣ
▁tečču
gerdan
eɣra
erḍe
ebni
uh
-yettu
eẓẓ
bib
siɣ
wid
▁akan
ruḥen
yeqqar
bg
uɣeɣ
ejji
▁iles-i
nefk
unni
gre
d-a
wiḍ
tḥemmle
nn
▁iqerr
uɛ
eqran
▁wexxam-nn
esteqsa-
ttnadi
teɣli
▁tiṭ-i
-n
▁tsek
llqe
-ten
qam
ɣlin
lemm
yiw
smen
ḥeww
▁teṭṭe
▁amel
arren
uḍa
ṛaj
xed
▁tizl
yi-teǧǧ
▁tetti
▁negren
zz
f-it
▁yeṭṭ
aziɣ
ɛdaw
iḥe
sel
msel
▁wul-
neggura
enwa
▁qq
eɛq
▁asen
ɣiw
kerr
enṭ
t-iyi
eḍḍ
tura
lbum
ifra
garen
▁tefk
nnuɣ
xi
ḥun
▁ulam
re
▁awa
ɛe
feṛ
fki
erɣa
mir
qell
eḥc
usn
waq
▁m-d-
eḥlu
uɣu
▁iẓ
▁anna
yewweḍ
▁targ
dag
-iten
ssiw
luḍ
sɛan
etma-
nnum
ṛay
isell
uɣer
lmad
▁tzi
▁iqeddacen
ḍebsi
ejbe
heddṛe
▁rab
ect
went
▁t-t
▁inna-
▁xali-
teččem
▁tmurt-
menda
ax
ɣaw
ebs
selle
▁yiɣef
sɛa
▁let
nezm
▁yemsu
▁takeṛṛust-i
el-iyi
aɣe
ṛem
laṣ
ṣegg
-sen
▁iwal
-yawi
eddi
lef
was
ezzi
▁yude
▁amcic-
▁agel
▁jeb
weɣ
tili
▁ulac-i
nga
sɛu
-ak
▁rra
dum
garu
rna
-itt
▁leslak-i
▁iḍa
▁rri
▁tesker
mlaleɣ
emɛ
▁ggugme
eṛṛa
▁iɣ
▁tcekka
ussn
yekker
▁ddunit-
▁tyaziḍt
uza
▁tẓ
▁leslak
d-yenna
▁yessawa
mneɣ
ug
▁tru
amm
▁age
rẓ
uẓa
ṣu
▁d-s
suɣ
▁yeɣle
ten-a
mat
edh
rrac
dis
ttuɣal
fu
xu
iẓẓ
fuke
rga
afi
t-n
ttnaɣ
▁iḍu
▁d-na
sers
wḍe
zewǧe
▁tuga
en-d
tẓall
llu
▁imawlan-
tant
funz
aseɛdi
aɣaw
▁yiman-n
▁ace
▁lme
nect-
▁yemma-t
ṭṭan
naɣen
▁waw
aneɣ
▁tt-
▁ifka
bḥ
azi
teffre
▁iba
▁lma
▁ba
▁isur
▁ame
lex
▁lam
xb
abbu
uy
izz
▁acebbub-i
▁leɛǧayeb
ẓid
nṭe
emgar
awa
▁temmute
ferne
isaw
▁bed
eǧǧi
wala-t
nnem
segbar
ẓran
▁uq
ɛemm
▁izdeɣ
nuɣ
▁tker
emsa
▁yiḍa
merr
yeɛ
rre
arut
▁azem
▁bd
▁cce
ɣbe
sme
▁tḥemm
adam
▁aye
ɣur-sen
yit
fri
aha
urǧ
ust
eɣṛ
▁tekkate
kla
▁yidl
qedd
eggi
ft
▁yimen
-ya
ddit
▁d-yer
lus
ẓẓu
tti
dak
ɣimi
▁tig
lell
exl
ɛel
▁yettar
ttɛa
ewwe
imen
▁tt-ye
asemt
eɛf
▁ẓ
▁iceḍḍiḍen
▁aqeṛṛu
▁yemm
ja
ey
▁iqed
▁ann
yil
zw
▁lwi
yi-i
zzenz
saru-
mrar
qq
eslay
qba
▁d-u
uz
▁tfuke
▁ni
▁tism
▁teqb
mazal
deɛw
lel
▁ttb
sselmad
eɣre
▁tfe
erwe
gma
d-i
-tawi
ḥem
-nn
sa-
▁anw
cah
igellil
▁ra
emme
▁d-tett
siwe
ak-d
ekk
ḥeɣ
▁tte
hṛ
-ilu
le
▁tsel
uqq
▁nef
yez
tent
▁iɣe
▁kent-
s-in
▁aɣ-
ṭṭa
sif
▁lḥeqq-i
twen
esbe
asen
skiddib
-tenn
▁alm
anwa
ddam
sihaṛ
os
▁ak-ye
nwal
▁uselm
les
eggr
▁lecɣal-i
▁ubeṛ
sul
ewwet
▁nne
ḥemmle
-twen
bba
ḍra
ɣe
-an
deh
▁taze
ɛd
aswi
zraw
tḥulfu
tra
▁ssir
sli
te
fṛe
▁tzem
▁k-y
lluẓe
gaɣ
▁sm
▁yife
iruḥ
ṭel
agre
yag
gga
atent
rri
▁sus
▁aqba
sit
sus
▁sḍ
ke
emli
kecme
ɣṛ
▁teɛ
siwan
taf
bra
▁wem
adda
bna
▁yettag
lisen
nettu
wat
ɛṛ
izem
bɣ
erni
tekle
▁ca
ttezzi
▁t-ye
bbe
cukke
erwal
gelli
a-t
t-
imaw
bṛah
▁wurrif
aṛen
▁urgaz-
ck
ttebbi
uɣalemt
▁atn
iza
egzi
neɣmas
▁taḥ
imeɣ
▁d-qqa
rwiḥt-i
ilin
ufa
dmen
▁yun
ebḥ
▁ilm
ḥma
▁nnaq
ẓa
yt
lind
azw
ettuɣal
ɛma
▁tije
rdan
▁isu
lulen
mez
nemla
meh
fṛ
▁iffe
asem
▁tce
a-tt
ettbin
▁tewwurt-
▁timeq
trar
▁tenn
▁later
ent-d
aki
▁tmed
▁ff
ɣan
▁tt-i
uc
▁ɛa
ce
awe
bu
sw
nif
▁nezm
▁axeddim-n
t-iw
fka
bun
d-
rd
eṭṭe
aṭ
iẓe
swaye
ɛq
▁tana
uzn
▁dde
▁tilem
yemma
meṭ
ḥaǧ
steɛf
-y
rac
▁tib
isenn
zelmaḍ
sura
mana
ḥad
rti
erri
anem
eqqur
ssu
kksem
▁tme
-im
▁qeb
ict
▁tic
aḥa
gla
tini
▁iɛegg
aɛe
fassen
nwen
ɛre
ddun
gzi
mlil
▁idrimen-
▁anegg
▁yettḥ
nedme
maqqalin
▁tfa
usli
klu
▁if
war
yeww
ǧǧi
ḍḍ
▁teq
aft
uli
rat
▁abe
▁d-qq
▁ḥemmleɣ-
ṛuḥen
imu
ṣeb
yo
ḥen
illa
jan
bɣan
▁lf
fr
ssaɣ
cḍ
▁lehdu
▁yennu
zge
▁texs
tgem
nfu
▁yam
but
nid
▁ten-
wwḍe
ttkel
dit
▁teww
siwle
▁tameẓ
ɣel
ziḍ
▁br
tufa
ḍel
steqsa-
anf
ner
ɛan
leṣ
zemre
tuki
aɣar
rraz
bl
▁sel-
▁idi
▁taq
meslub
ṭṭfe
-tt-
azɣa
▁yettn
ɣelḍe
sn
eḍṛ
▁neǧǧ
man-nsen
▁imse
lw
amezr
bay
eqde
yud
afu
mz
mdakel
xedme
yiwen
l-ik
▁ten
tasem
beṛ
ewweḍ
▁neqq
▁ǧe
▁tul
waɣ
▁tc
iɣef-in
▁isen
ṛe
wakke
▁yeske
▁s-
rreḥ
lent
isen
egza
emmu
▁ness
ikl
eml
ekkes
sḥa
terr
▁texl
▁a-t
egga
ok
ww
ssn
hem-i
▁itt
menz
iben
walaɣ
▁meẓẓ
▁yesk
▁azen
umliḥ
tṛaju
eqwa
ɣ-as
qqaṛe
mme
fir
lim
▁lfe
gad
▁ifassen-
qed
en-ine
▁ṣ
ḥlu
qur
lɣa
-ye
nern
ys
▁nẓe
ceɣ
uḍne
taɣ
neq
ḥli
awal
▁imi-
ḍem
heṛ
aqi
elmade
▁aḍa
▁tb
aye
tuf
nṭ
aws
tu
ɛn
▁tamar
uka
eggaru
req
tla
ynut
masiḥi
ldi
▁yure
neh
ḥemm
xx
han
▁leḥma
ezd
ẓur
čč
▁ixe
uɣalen
ḥs
waye
r-a
traju
▁bus
duk
meg
wu
banan
tig
l-iyi
tal
▁neb
tefkiḍ
fke
wur
▁iɣell
ime
eɣrem
lma
isa
ẓi
erw
qqare
tsen
qeḍ
duṛ
enn
ks
ems
eqqare
▁yeww
feṛḥ
sefr
yeǧǧa
iɛ
iku
tawim
amin
ḍru
truḥe
fat
ceb
elṭ
wwi
taru
ccan
yuɣ
▁yesl
s-i
mdin
usiḍ
gella
▁the
ff
meẓy
gam
▁leqwanen-i
ttkellixe
ameɣ
ṣa
hb
▁leɛqe
ṣi
bṛat-
semt
▁uqer
ng
unn
yezg
nekk
▁uɛ
tmurt
▁aydi-
▁th
▁wug
tban
▁ttḥu
jbe
▁yeqb
ɣre
ṛu
bell
nɣan
eɣb
▁kka
ced
ggum
ifa
ttbane
kl
twali
▁uye
nna-y
t-i
▁tuɣa
▁cca
▁rru
erwa
ɛu
lemẓi
yex
▁yiɣi
▁ɣel
etwa
gura
taɣe
unz
▁tfu
ffu
▁init
sed
▁tamsa
cri
indi
▁ite
ɛaw
ṣb
min
▁tibe
lḥ
-yuf
fay
id-a
usi
agga
an-
frem
walen
▁iɛa
aka
add
alin
▁taxxamt-i
▁ine
tem
tta
fka-
tas
▁ttm
▁d-ne
turar
ilaq
muss
k-iyi
iman-i
mas
xxa
ern
ina
essawe
▁ana
▁nura
▁yeṭṭef-
rmu
imɣ
▁tiga
tettas
eẓyan
iwe
ezwaru
kerk
▁zm
adu
teg
lili
aqe
cew
kanad
nsen
ggr
tiẓ
ɣr
-yenna
alen
ḥbu
edra
zwi
xemmim
▁yize
ellal
▁iseg
ssway
erkan
ruḥe
▁tettb
cik
ɣ-d-
dha
▁tutlayt-
ffeɣ-
zer
tqa
tidet
ebd
▁ttar
cem
truḥ
ekkre
meslaye
eḥr
traǧu
ssuter
senn
▁tḥe
ḥr
▁tbe
irem
eɣr
▁cb
tɣimi
zdat
rik
▁amd
iteddu
tarra
▁timm
qran
bo
▁tɛe
eɣli
yebɣa
uffɣ
fak
▁tebd
lm
rran
umm
tbedd
▁taddart-
netta
▁ffɣe
▁nad
▁tegn
imagr
ude
▁akki
mẓ
rra-t
ilu
▁tessi
bni
eẓṛa
gdu
lluẓ
negg
▁turi
gr
erke
ddakel-i
ɣb
nud
▁idrimen-i
▁tek
▁k-i
▁sen
cukk
▁ted
▁maɛ
ar-as
eẓr
elm
▁irra-
▁afe
afri
bbu
ḍṛ
acahut
llal
cin
imsi
leh
esk
essew
igin
eddre
ṭṭeb
tawḍe
▁bn
▁yimawlan-
nezz
mɛi
▁sse
zik
ttas
mri
▁taka
aziḍ
yeqqim
▁ffe
uẓ
ssi
ihen
azzal
▁ṛṛay-
tella
ft-
yal
yiḍ
raḍ
▁irra
ur-i
▁aka
ser
xedmeɣ
sujji
rikan
udr
xla
rf
ttarun
alal
it-a
▁aze
▁yig
eyy
ččin
adi
mus
▁set
seww
wḍem
uss
ssne
effa
sami
hl
▁ts
▁tmeṭṭut-
uzen
gguma
tekl
dim
esɛedd
tam
twa
ttk
ebbuḍ
aɣi
murt
dud
alla
uxxam
new
yat-i
ṛṛa
sil
▁ɣli
les-
ydi
ayat
sseww
eɣri
▁nez
▁tise
▁qqle
rgu
amma
ččan
iy
d-m
a-nni
yesɛa
rawi
▁yidu
wwe
ḥe
▁ika
ebɛ
ḍnen
mens
qqime
tsell
ewɛe
▁uss
iḍe
-ne
▁uẓr
ska
▁ned
▁kke
▁it
tuɣal
ehn
tamne
sla
▁tefh
ɣra
sbedde
wweḍ
klal
abe
yid-
en-iyi
ih
enzu
ezg
anna
amaynu
mdukal
neɛ
qwa
▁lqe
as-nni
wayen
▁yenn
▁iser
ikel
arameɣ
uca
zzi
▁uf
xel
yessef
-iẓe
nw
wass
▁txe
ɣac
met
▁testuf
ukal
ddmen
ɛec
rj
enɣi
els
waya
amne
ɣes
ers
▁tax
nnu
▁ɛi
ḥni
ssna
qqareɣ
ube
bin
ɛr
siri
ttbin
egz
▁uba
diren
imir-
▁tine
kle
naw
kkre
ineḍ
sens
▁ḥu
s-n
▁azw
sellek-i
man-nwen
ifer
ayt
ṣfa
gḍ
▁yek
ɣ-ten
edyaz
wakk
▁iṣe
lleb
uḥen
-awen
iqqim
mawi
iwa
qaye
glen
yeffu
sbe
mb
yegg
lilit
ǧer
a-twen
fas
bir
temsefham
is-n
muq
yelha
aggad
gz
mume
am-i
erre
▁isa
erk
alma
sda
ɣart
▁neml
yiwe
fell-as
axxam
arikan
yef
mmu
yedda
set
ttma
yenna-
telli
salt
txemmim
ɛedd
uref
▁aḍ
tmes
yett
ehde
ssarame
▁tettar
laɣ
ẓṛ
cci
yedd
▁xe
kečč
xa
kes
enna-
-qqa
egl
n-nwen
uɣerbaz
ssine
kkse
▁iɣa
▁ze
wla
r-nn
llen
uge
tawi
ɛaḍ
ehme
tazzal
gaw
idrimen
yelli
s-
▁kr
zɣ
▁waggu
ṭṭaw
ẓem
ẓe
bɛa
izga
xell
ṛuḥe
ɣse
azekka
rma
▁uɣe
▁tlu
uni
zmire
penyul
fus
umne
tɛa
ddre
je
cahut
ṭṭe
adlis
t-nni
zedɣe
aba
umb
hra
iṛ
sɛeddi
hbu
▁itte
▁qqare
fru
my
yenna
iselma
ḥemmleɣ
ettu
eks
▁tessa
eb-
icenn
ski
▁uge
erf
dr
emh
ziz
ɛt
▁ɛegg
wurt
iḥemmel
▁as-d-
iṛu
regm
▁ɣl
ffe
uda
n-t
ans
▁wass-n
agad
ezgu
iten
yid-k
aɛa
rare
ṭe
ewwi-t
reh
zr
iwan
tmeslay
esg
tna
tt-id
imem
ṛṛu
ecṭuḥ
llid
▁ttr
▁tedde
yir
eddim
ṣṣe
essaw
nada
n-nni
usan
irga
isi
▁tettek
sɛ
teddum
wi-t
yid-s
tudert
ṛi
errze
ẓṛa
eḥḥa
▁tɣa
ufa-
rz
lṭ
agg
lsi
taddart
▁leɛǧ
ezw
jeǧǧig
tge
cwi
▁uɛe
▁tiɣ
lac
mleɣ
ɣur-
maw
nesl
tma
gaz
sal
tikkelt
yid-sen
▁ga
effe
▁tanm
law
cba
mga
iḥt
tmesxiṛ
ellil
ettak
ekl
yeddu
▁xedme
asm
imd
teẓram
zir
tettban
ɣri
-yeww
▁amag
ettam
rn
ehd
a-
eẓẓuɣ
eṭṭi
yerna
sb
eggaɣ
ngal
tes
aj
ile
d-ye
ttak
tebɣi
f-i
wis
ms
tebɣam
abeḥ
mezr
▁ihe
yemmut
ekn
nza
rfi
abrid
wul
sh
fell-a
teẓri
r-as
nf
▁usaf
yid-wen
tesɛi
fell-ak
n-in
wawal
fs
tr
er-i
md
ise
erbaz
ɣur-n
tamurt
▁yeqqa
uḥu
▁tewwet-
laman
zla
mmte
tutlayt
ččiɣ
amu
ẓra-t
▁temɣe
ḥulfu
tneɣ
▁sla
esl
baba-
eǧǧ
rut
ezm
ḥer
gnu
gade
awent
▁ttmes
zar
tama
yew
uḍar
-iɛaw
kemmi
elb
čča
ɣze
▁leḥsa
▁yimaw
▁ij
wlem
ẓu
▁dr
cb
fell-asen
sekl
eqd
rɛ
deffir
▁far
kerkse
xe
ukr
elw
tagad
eččen
ice
ewt
lat
▁ḥeb
usme
tizi
▁ile
kad
d-nni
ass-
sek
▁ls
fell-
derɣ
tg
amur
s-y
wɛe
ṛaju
wassne
isem-i
▁tesma
yufa
▁wasi
tettbane
ame
i-
eqqe
tellam
▁xem
teqqim
neg
baba
sḥ
neb
bd
temm
d-y
temdint
agr
tečč
anin
deg-s
-d-a
teqsa
fell-awen
-id
akki
teɛfu
ttu
▁thedd
esɛ
ddi
▁nsa
▁neqqa
▁aɣe
saram
▁ire
kr
mac
mr
tak
ennan
yekka
▁yima
muc
s-a
n-
yeg
▁kf
stuf
mud
asw
▁tafa
▁e
▁wel
emde
sl
aql-i
tesɛa
yem
iɛedda
▁ude
tag
tidir
lqa
rwe
amahil
iṛuḥ
tayri
argaz
tidi
yezr
tameṭṭut
gunfu
lɣ
yeḍra
n-iyi
hba
yeẓra
čče
d-yeww
cca
tzemre
ɛass
useggas
tedd
yečč
lhu
mda
ldin
ǧe
wac
ase
urr
ttge
aqcic
itteddu
isse
▁ḥemmle
ebɣ
▁tɣe
▁tej
▁neḥ
rka
▁lhe
▁zi
č
|
